00001101
00111000
00011011
00001100
11101100
00100110
11110000
01100110
01111001
11100010
01001100
00001000
00010010
01101111
10010000
10010101
10000011
01010110
01001000
01100000
01111100
01001110
11110110
01001001
10011101
00100100
10100011
01110100
00000110
11101010
11000011
01000111
11110101
00010010
10000011
00011111
00011101
00011110
01110011
00101111
11011011
11110000
00110011
10001110
00101011
00101100
10110101
10100000
11010000
11011101
00010010
11110000
01111111
10011001
10110100
10101000
00101000
11000000
11110111
10111110
10100111
10011011
00101001
10100010
