00000001
00000011
00000001
00000001
00001111
00000010
00001111
00000110
00000111
00001110
00000100
00000000
00000001
00000110
00001010
00001010
00001001
00000101
00000100
00000101
00000111
00000100
00001111
00000100
00001011
00000010
00001011
00000110
00000000
00001111
00001101
00000100
00001111
00000001
00001001
00000010
00000010
00000010
00000110
00000011
00001110
00001111
00000011
00001010
00000010
00000010
00001100
00001011
00001101
00001110
00000001
00001111
00000111
00001010
00001100
00001011
00000010
00001100
00000000
00001100
00001011
00001010
00000010
00001011
